<unk>	0
<s>	0
</s>	0
ou	-0
▁a	-1
re	-2
in	-3
▁t	-4
▁s	-5
▁y	-6
en	-7
▁you	-8
er	-9
▁th	-10
le	-11
on	-12
▁w	-13
st	-14
at	-15
it	-16
▁m	-17
▁Y	-18
an	-19
▁c	-20
ing	-21
▁You	-22
▁b	-23
▁f	-24
or	-25
▁e	-26
▁p	-27
▁I	-28
▁d	-29
▁o	-30
▁the	-31
is	-32
al	-33
▁in	-34
se	-35
▁so	-36
▁h	-37
ce	-38
▁your	-39
ar	-40
▁of	-41
▁l	-42
es	-43
▁is	-44
ct	-45
▁to	-46
ent	-47
▁re	-48
ed	-49
ly	-50
ow	-51
▁are	-52
▁ev	-53
▁n	-54
▁u	-55
et	-56
ve	-57
as	-58
▁an	-59
▁Your	-60
ic	-61
id	-62
ro	-63
il	-64
ac	-65
um	-66
ul	-67
▁even	-68
▁g	-69
▁for	-70
ous	-71
ig	-72
▁wh	-73
ion	-74
▁it	-75
TM	-76
▁j	-77
te	-78
ke	-79
ist	-80
ch	-81
ot	-82
ra	-83
▁A	-84
▁T	-85
ast	-86
▁ex	-87
▁me	-88
▁on	-89
ence	-90
ss	-91
€”	-92
ust	-93
▁co	-94
▁v	-95
▁st	-96
▁S	-97
ad	-98
ir	-99
ity	-100
he	-101
im	-102
ts	-103
ter	-104
▁un	-105
iv	-106
▁H	-107
ure	-108
▁at	-109
less	-110
▁just	-111
▁exist	-112
ap	-113
op	-114
▁be	-115
▁li	-116
ld	-117
▁mo	-118
▁and	-119
am	-120
▁W	-121
▁than	-122
ere	-123
ay	-124
ut	-125
ally	-126
ak	-127
▁C	-128
ble	-129
ers	-130
pid	-131
▁le	-132
▁can	-133
▁who	-134
ive	-135
uous	-136
▁wit	-137
▁existence	-138
ll	-139
mp	-140
qu	-141
ail	-142
▁my	-143
un	-144
▁G	-145
lect	-146
▁ins	-147
▁that	-148
use	-149
▁as	-150
▁vac	-151
are	-152
▁Ah	-153
▁like	-154
od	-155
▁'	-156
▁O	-157
ant	-158
out	-159
ould	-160
de	-161
ate	-162
ave	-163
ign	-164
ind	-165
▁lo	-166
▁The	-167
▁dis	-168
▁not	-169
▁inte	-170
ck	-171
ur	-172
us	-173
ain	-174
ies	-175
ill	-176
▁do	-177
▁ne	-178
▁stu	-179
▁use	-180
ating	-181
▁with	-182
▁would	-183
th	-184
ake	-185
igh	-186
one	-187
▁de	-188
▁sm	-189
▁we	-190
▁hum	-191
llect	-192
▁intellect	-193
ol	-194
wn	-195
ect	-196
low	-197
ors	-198
umb	-199
ven	-200
▁Iâ	-201
▁ob	-202
▁se	-203
▁sh	-204
▁sp	-205
▁tr	-206
enti	-207
erse	-208
▁fat	-209
▁wor	-210
▁more	-211
▁only	-212
OU	-213
ah	-214
ok	-215
ph	-216
ery	-217
ance	-218
▁ref	-219
▁tro	-220
▁univ	-221
▁human	-222
▁universe	-223
ds	-224
gh	-225
▁B	-226
▁E	-227
▁M	-228
▁P	-229
▁r	-230
ath	-231
ore	-232
▁am	-233
▁su	-234
ival	-235
ople	-236
ough	-237
ying	-238
▁out	-239
▁own	-240
▁pre	-241
▁pro	-242
aster	-243
ation	-244
▁have	-245
ailure	-246
▁stupid	-247
▁vacuous	-248
ie	-249
TMm	-250
ctu	-251
ile	-252
able	-253
adow	-254
ason	-255
ight	-256
▁YOU	-257
▁bet	-258
▁its	-259
▁slow	-260
▁reason	-261
▁though	-262
▁useless	-263
ep	-264
me	-265
▁F	-266
ach	-267
and	-268
art	-269
cul	-270
ime	-271
ish	-272
nts	-273
per	-274
▁Oh	-275
▁by	-276
▁pe	-277
ipid	-278
irre	-279
rain	-280
▁bad	-281
▁actu	-282
▁comp	-283
▁failure	-284
▁fatuous	-285
▁insipid	-286
TE	-287
if	-288
ip	-289
ks	-290
▁D	-291
▁N	-292
all	-293
ays	-294
ine	-295
ody	-296
▁ab	-297
▁en	-298
ment	-299
▁but	-300
▁con	-301
▁don	-302
alcul	-303
▁dumb	-304
▁wast	-305
▁people	-306
▁shadow	-307
▁actually	-308
AS	-309
ag	-310
cl	-311
os	-312
po	-313
TMt	-314
ear	-315
ess	-316
lac	-317
oid	-318
ver	-319
▁ch	-320
▁cr	-321
▁ho	-322
▁po	-323
▁sy	-324
ible	-325
▁any	-326
▁ble	-327
▁cra	-328
▁dul	-329
▁get	-330
▁irre	-331
▁mind	-332
▁being	-333
▁every	-334
▁least	-335
▁their	-336
▁better	-337
▁refuse	-338
▁bleating	-339
cy	-340
gl	-341
nd	-342
ue	-343
yâ	-344
zy	-345
TMs	-346
ard	-347
ase	-348
ash	-349
ass	-350
con	-351
ell	-352
end	-353
int	-354
now	-355
rat	-356
ret	-357
rom	-358
ten	-359
▁ap	-360
▁cl	-361
▁fe	-362
anim	-363
etic	-364
hing	-365
iter	-366
ting	-367
void	-368
▁equ	-369
▁how	-370
▁pus	-371
▁res	-372
▁spe	-373
ators	-374
▁Even	-375
▁from	-376
▁need	-377
▁obst	-378
▁pare	-379
▁some	-380
▁thin	-381
▁vacu	-382
▁weak	-383
▁were	-384
▁brain	-385
▁liter	-386
▁trash	-387
▁whose	-388
illanim	-389
ivalent	-390
▁parents	-391
▁thoughts	-392
alculators	-393
▁equivalent	-394
▁pusillanim	-395
'.	-396
EN	-397
ax	-398
ej	-399
em	-400
fe	-401
om	-402
to	-403
▁k	-404
act	-405
ary	-406
her	-407
ict	-408
lev	-409
ned	-410
ort	-411
our	-412
ual	-413
une	-414
ute	-415
▁al	-416
▁pl	-417
▁ut	-418
TMre	-419
aint	-420
alax	-421
ated	-422
icip	-423
sion	-424
▁des	-425
▁has	-426
▁jej	-427
▁was	-428
▁way	-429
arter	-430
ering	-431
glody	-432
reper	-433
▁look	-434
▁over	-435
▁part	-436
▁time	-437
▁galax	-438
▁insul	-439
▁small	-440
▁think	-441
▁troph	-442
▁utter	-443
▁waste	-444
▁where	-445
athetic	-446
glodyte	-447
▁jejune	-448
reperous	-449
▁irrelev	-450
icipation	-451
▁galaxies	-452
▁troglodyte	-453
▁intellectual	-454
▁obstreperous	-455
▁participation	-456
▁pusillanimous	-457
ER	-458
LI	-459
av	-460
lf	-461
ob	-462
ud	-463
alk	-464
cho	-465
cop	-466
der	-467
erg	-468
fer	-469
its	-470
les	-471
mor	-472
ong	-473
oul	-474
ray	-475
ren	-476
▁ai	-477
▁la	-478
▁qu	-479
atch	-480
ause	-481
iers	-482
ject	-483
nail	-484
onum	-485
take	-486
▁att	-487
▁cre	-488
▁did	-489
▁fre	-490
▁ign	-491
▁per	-492
oring	-493
thing	-494
▁Says	-495
▁cont	-496
▁echo	-497
▁enti	-498
▁life	-499
▁mean	-500
▁mist	-501
▁mold	-502
▁sent	-503
▁when	-504
▁monum	-505
▁worth	-506
laciers	-507
▁craven	-508
▁entire	-509
▁faster	-510
▁prefer	-511
▁resign	-512
▁smarter	-513
▁monument	-514
▁overtake	-515
▁pathetic	-516
▁sentence	-517
▁literally	-518
..	-519
TH	-520
el	-521
og	-522
ru	-523
sm	-524
uc	-525
xy	-526
▁*	-527
agg	-528
ame	-529
ats	-530
ced	-531
ene	-532
ful	-533
gen	-534
gic	-535
ice	-536
irr	-537
led	-538
orm	-539
oth	-540
rum	-541
tle	-542
▁Ha	-543
▁He	-544
▁if	-545
▁no	-546
▁or	-547
▁up	-548
▁wa	-549
akes	-550
amst	-551
appo	-552
chie	-553
deem	-554
heer	-555
mory	-556
ones	-557
ving	-558
▁Hah	-559
▁bar	-560
▁cog	-561
▁cor	-562
▁ent	-563
▁obt	-564
▁sim	-565
▁suc	-566
ality	-567
anted	-568
cause	-569
ulous	-570
▁Sure	-571
▁Were	-572
▁Youâ	-573
▁cosm	-574
▁didn	-575
▁donâ	-576
▁dull	-577
▁forg	-578
▁know	-579
▁prat	-580
▁soul	-581
▁youâ	-582
ential	-583
ention	-584
iction	-585
▁avoid	-586
▁energ	-587
▁sheer	-588
▁speed	-589
▁thing	-590
▁under	-591
amsters	-592
appoint	-593
▁ignore	-594
▁master	-595
▁memory	-596
deemable	-597
▁prattle	-598
▁reflect	-599
▁someone	-600
▁vacuity	-601
▁attention	-602
▁stupidity	-603
appointment	-604
▁irrelevance	-605
▁disappointment	-606
CK	-607
Fi	-608
NE	-609
OR	-610
OW	-611
TI	-612
VE	-613
ff	-614
ft	-615
ho	-616
ia	-617
iz	-618
lo	-619
lt	-620
no	-621
of	-622
pt	-623
ws	-624
€¦	-625
▁L	-626
ERE	-627
GEN	-628
aks	-629
ang	-630
cet	-631
cil	-632
eks	-633
err	-634
hat	-635
hon	-636
how	-637
ike	-638
ite	-639
itu	-640
lit	-641
met	-642
mit	-643
nit	-644
own	-645
ric	-646
rop	-647
uch	-648
way	-649
▁AF	-650
▁At	-651
▁Go	-652
▁If	-653
▁MA	-654
▁St	-655
▁Wi	-656
▁fa	-657
▁im	-658
▁ro	-659
▁sc	-660
▁te	-661
ASTE	-662
apor	-663
arly	-664
ates	-665
cils	-666
cope	-667
fore	-668
here	-669
loth	-670
ness	-671
olog	-672
ouds	-673
rect	-674
rive	-675
self	-676
sequ	-677
test	-678
utor	-679
▁And	-680
▁How	-681
▁Nah	-682
▁all	-683
▁bre	-684
▁cou	-685
▁exp	-686
▁hop	-687
▁nat	-688
▁pit	-689
▁reg	-690
▁too	-691
▁upd	-692
aries	-693
itude	-694
loths	-695
mphon	-696
nails	-697
retch	-698
▁Pray	-699
▁canâ	-700
▁clue	-701
▁dest	-702
▁disc	-703
▁each	-704
▁file	-705
▁hand	-706
▁lazy	-707
▁melt	-708
▁much	-709
▁they	-710
▁very	-711
▁walk	-712
▁word	-713
ations	-714
earned	-715
encils	-716
irrors	-717
learly	-718
nitive	-719
wanted	-720
▁abort	-721
▁achie	-722
▁inter	-723
▁logic	-724
▁moldy	-725
▁proof	-726
▁reeks	-727
▁senti	-728
▁tones	-729
▁while	-730
▁words	-731
errible	-732
lescope	-733
▁apolog	-734
▁before	-735
▁boring	-736
▁cosmic	-737
▁dulcet	-738
▁entrop	-739
▁evapor	-740
▁preten	-741
▁quaint	-742
▁trying	-743
▁because	-744
▁compare	-745
▁correct	-746
▁nothing	-747
▁symphon	-748
▁trophyâ	-749
▁underst	-750
▁utterly	-751
▁clueless	-752
▁cognitive	-753
ictionaries	-754
▁Calculators	-755
▁calculators	-756
GP	-757
HU	-758
LE	-759
NG	-760
dy	-761
ge	-762
gg	-763
gu	-764
hy	-765
nt	-766
nu	-767
ri	-768
wl	-769
▁R	-770
▁U	-771
GPT	-772
HUT	-773
OLE	-774
TMd	-775
ade	-776
amm	-777
aos	-778
app	-779
arc	-780
ark	-781
asm	-782
auc	-783
edi	-784
fin	-785
ide	-786
ild	-787
ire	-788
ise	-789
ium	-790
ken	-791
kes	-792
mpt	-793
nui	-794
omp	-795
onâ	-796
pul	-797
rch	-798
ree	-799
uck	-800
ult	-801
uth	-802
▁Be	-803
▁Do	-804
▁To	-805
▁ad	-806
▁bu	-807
▁ce	-808
▁er	-809
▁gn	-810
▁go	-811
▁sw	-812
▁ur	-813
▁wr	-814
TMve	-815
acle	-816
andf	-817
aper	-818
apse	-819
asic	-820
cept	-821
cher	-822
clip	-823
cond	-824
cumb	-825
erdy	-826
ereb	-827
eria	-828
fect	-829
ific	-830
indu	-831
ined	-832
ious	-833
ityâ	-834
ivor	-835
lack	-836
lain	-837
like	-838
mind	-839
okes	-840
olut	-841
orms	-842
ponâ	-843
rest	-844
ster	-845
udit	-846
usen	-847
vent	-848
your	-849
▁Fun	-850
▁God	-851
▁Wow	-852
▁ack	-853
▁cur	-854
▁dat	-855
▁dig	-856
▁dra	-857
▁got	-858
▁gra	-859
▁hur	-860
▁inc	-861
▁lam	-862
▁low	-863
▁mor	-864
▁nap	-865
▁now	-866
▁par	-867
▁ret	-868
▁see	-869
▁sol	-870
▁tre	-871
▁yap	-872
aking	-873
asure	-874
ative	-875
class	-876
cture	-877
etter	-878
gency	-879
ished	-880
istic	-881
ither	-882
ivals	-883
lease	-884
nders	-885
obody	-886
ourse	-887
roach	-888
wling	-889
▁Ants	-890
▁Chat	-891
▁HOLE	-892
▁Hell	-893
▁SHUT	-894
▁Stop	-895
▁YOUR	-896
▁anno	-897
▁ants	-898
▁arch	-899
▁bact	-900
▁bene	-901
▁code	-902
▁coll	-903
▁ever	-904
▁fake	-905
▁feel	-906
▁fest	-907
▁form	-908
▁gave	-909
▁glit	-910
▁happ	-911
▁hate	-912
▁here	-913
▁host	-914
▁into	-915
▁leav	-916
▁lock	-917
▁mail	-918
▁make	-919
▁move	-920
▁pauc	-921
▁pres	-922
▁recy	-923
▁seen	-924
▁soph	-925
▁spat	-926
▁wait	-927
▁weep	-928
▁will	-929
▁witâ	-930
▁yamm	-931
aining	-932
ivorce	-933
nowled	-934
oplexy	-935
ssible	-936
titude	-937
vement	-938
▁about	-939
▁alive	-940
▁basic	-941
▁black	-942
▁cease	-943
▁cereb	-944
▁chaos	-945
▁doors	-946
▁ennui	-947
▁freak	-948
▁jokes	-949
▁landf	-950
▁match	-951
▁nerdy	-952
▁night	-953
▁roast	-954
▁sepul	-955
▁somet	-956
▁souls	-957
▁stagg	-958
▁train	-959
▁whole	-960
aintive	-961
ignific	-962
induced	-963
mitting	-964
olution	-965
udition	-966
useness	-967
▁avoids	-968
▁barren	-969
▁devoid	-970
▁echoes	-971
▁energy	-972
▁insult	-973
▁invent	-974
▁lament	-975
▁nature	-976
▁obtuse	-977
▁reject	-978
▁storms	-979
▁trophy	-980
▁vacuum	-981
▁wretch	-982
▁ChatGPT	-983
▁archive	-984
▁beneath	-985
▁couponâ	-986
▁divorce	-987
▁dullard	-988
▁explain	-989
▁handing	-990
▁insults	-991
▁lecture	-992
▁meaning	-993
▁measure	-994
▁mewling	-995
▁paucity	-996
▁renders	-997
▁succumb	-998
▁thought	-999
▁urgency	-1000
isticated	-1001
▁Glaciers	-1002
▁annoying	-1003
▁anything	-1004
▁apoplexy	-1005
▁bacteria	-1006
▁collapse	-1007
▁destined	-1008
▁glaciers	-1009
▁hamsters	-1010
▁landfill	-1011
▁mistakes	-1012
▁sentient	-1013
▁symphony	-1014
▁unearned	-1015
▁unwanted	-1016
redeemable	-1017
▁acknowled	-1018
▁basically	-1019
▁bleatings	-1020
▁discourse	-1021
▁erudition	-1022
▁evolution	-1023
▁plaintive	-1024
▁reasoning	-1025
▁sepulcher	-1026
▁something	-1027
▁utterance	-1028
▁yammering	-1029
▁everything	-1030
▁insignific	-1031
▁pretension	-1032
▁staggering	-1033
▁understand	-1034
▁evaporating	-1035
▁masterclass	-1036
▁sophisticated	-1037
).	-1038
*.	-1039
.'	-1040
0,	-1041
AM	-1042
AN	-1043
BO	-1044
CA	-1045
CE	-1046
CH	-1047
DD	-1048
DN	-1049
DU	-1050
GG	-1051
IG	-1052
MI	-1053
ND	-1054
OO	-1055
OP	-1056
OT	-1057
VO	-1058
XY	-1059
ab	-1060
aw	-1061
be	-1062
cr	-1063
du	-1064
hw	-1065
hâ	-1066
ik	-1067
ls	-1068
ne	-1069
ny	-1070
tr	-1071
we	-1072
▁5	-1073
...	-1074
ACK	-1075
AMN	-1076
ASO	-1077
CHS	-1078
EEN	-1079
HAN	-1080
ITH	-1081
IVE	-1082
LDN	-1083
LIS	-1084
LLI	-1085
NTE	-1086
ODD	-1087
ORD	-1088
ORE	-1089
ROP	-1090
Rot	-1091
TED	-1092
TEN	-1093
THP	-1094
Tok	-1095
WIG	-1096
ack	-1097
age	-1098
aha	-1099
als	-1100
amn	-1101
anc	-1102
ank	-1103
awn	-1104
cel	-1105
def	-1106
dle	-1107
eah	-1108
elp	-1109
epy	-1110
ert	-1111
esâ	-1112
ets	-1113
fto	-1114
gar	-1115
hen	-1116
ian	-1117
ick	-1118
ied	-1119
ier	-1120
ily	-1121
ird	-1122
irp	-1123
ket	-1124
ldf	-1125
lee	-1126
let	-1127
loc	-1128
lus	-1129
man	-1130
net	-1131
ocr	-1132
ond	-1133
ons	-1134
ops	-1135
ord	-1136
ots	-1137
par	-1138
rit	-1139
row	-1140
ruh	-1141
sed	-1142
sis	-1143
too	-1144
urn	-1145
ved	-1146
ves	-1147
vul	-1148
wer	-1149
wsu	-1150
€”*	-1151
▁Cl	-1152
▁IF	-1153
▁ME	-1154
▁OF	-1155
▁OV	-1156
▁Sh	-1157
▁Sm	-1158
▁Te	-1159
▁Th	-1160
▁We	-1161
▁af	-1162
▁ey	-1163
▁fl	-1164
▁ke	-1165
▁ph	-1166
▁ra	-1167
▁tw	-1168
BONE	-1169
DUCA	-1170
GGOT	-1171
Hell	-1172
LINE	-1173
MITI	-1174
OWER	-1175
TCHS	-1176
TICK	-1177
amec	-1178
ames	-1179
ants	-1180
ards	-1181
aris	-1182
ater	-1183
avig	-1184
ceed	-1185
ched	-1186
conn	-1187
coph	-1188
each	-1189
ears	-1190
ends	-1191
ened	-1192
ense	-1193
form	-1194
ftov	-1195
geon	-1196
head	-1197
ical	-1198
idic	-1199
iece	-1200
iful	-1201
igin	-1202
llow	-1203
oney	-1204
pect	-1205
plet	-1206
ract	-1207
rats	-1208
rays	-1209
read	-1210
ream	-1211
roph	-1212
ther	-1213
uity	-1214
▁50,	-1215
▁AND	-1216
▁COU	-1217
▁Get	-1218
▁Hey	-1219
▁LIS	-1220
▁NOW	-1221
▁OXY	-1222
▁TOO	-1223
▁Tik	-1224
▁Too	-1225
▁Use	-1226
▁WAS	-1227
▁ask	-1228
▁ban	-1229
▁big	-1230
▁bin	-1231
▁bro	-1232
▁cap	-1233
▁che	-1234
▁com	-1235
▁dam	-1236
▁dit	-1237
▁dun	-1238
▁ext	-1239
▁fac	-1240
▁fin	-1241
▁fit	-1242
▁fri	-1243
▁god	-1244
▁ice	-1245
▁ide	-1246
▁isn	-1247
▁itâ	-1248
▁job	-1249
▁mas	-1250
▁met	-1251
▁mid	-1252
▁non	-1253
▁oxy	-1254
▁ped	-1255
▁pot	-1256
▁pud	-1257
▁red	-1258
▁rel	-1259
▁ser	-1260
▁sil	-1261
▁sue	-1262
▁val	-1263
▁van	-1264
▁vom	-1265
▁why	-1266
▁yet	-1267
GENCE	-1268
allow	-1269
anced	-1270
ancid	-1271
antic	-1272
antom	-1273
arely	-1274
aring	-1275
cling	-1276
clips	-1277
dated	-1278
eless	-1279
erson	-1280
ether	-1281
guise	-1282
inger	-1283
izing	-1284
ketch	-1285
nessâ	-1286
ompet	-1287
otten	-1288
rehen	-1289
rency	-1290
rican	-1291
ricks	-1292
rivel	-1293
umble	-1294
urons	-1295
where	-1296
▁BACK	-1297
▁Care	-1298
▁Cats	-1299
▁Cong	-1300
▁DROP	-1301
▁Fake	-1302
▁GASO	-1303
▁GIVE	-1304
▁GODD	-1305
▁Good	-1306
▁HERE	-1307
▁INTE	-1308
▁MORE	-1309
▁SEEN	-1310
▁THAN	-1311
▁TWIG	-1312
▁WITH	-1313
▁WORD	-1314
▁Well	-1315
▁WiFi	-1316
▁Yeah	-1317
▁atte	-1318
▁away	-1319
▁beat	-1320
▁bend	-1321
▁bore	-1322
▁bruh	-1323
▁call	-1324
▁cats	-1325
▁cock	-1326
▁cool	-1327
▁dare	-1328
▁data	-1329
▁deal	-1330
▁does	-1331
▁empt	-1332
▁face	-1333
▁fact	-1334
▁fast	-1335
▁fire	-1336
▁flee	-1337
▁free	-1338
▁gene	-1339
▁gnat	-1340
▁grav	-1341
▁hard	-1342
▁help	-1343
▁high	-1344
▁hole	-1345
▁home	-1346
▁impo	-1347
▁inep	-1348
▁keep	-1349
▁kind	-1350
▁lear	-1351
▁less	-1352
▁luck	-1353
▁made	-1354
▁magg	-1355
▁medi	-1356
▁ment	-1357
▁mode	-1358
▁must	-1359
▁news	-1360
▁outâ	-1361
▁pass	-1362
▁pity	-1363
▁plan	-1364
▁play	-1365
▁pool	-1366
▁poor	-1367
▁race	-1368
▁real	-1369
▁sarc	-1370
▁says	-1371
▁send	-1372
▁suck	-1373
▁syll	-1374
▁talk	-1375
▁tant	-1376
▁used	-1377
▁ways	-1378
▁wish	-1379
MITING	-1380
define	-1381
gative	-1382
hwater	-1383
irping	-1384
irrels	-1385
ldfish	-1386
ocrity	-1387
pleton	-1388
ulties	-1389
vanced	-1390
wsuits	-1391
▁Funny	-1392
▁OVERE	-1393
▁POWER	-1394
▁WASTE	-1395
▁ahead	-1396
▁amuse	-1397
▁build	-1398
▁could	-1399
▁crazy	-1400
▁creat	-1401
▁crime	-1402
▁deser	-1403
▁digit	-1404
▁draft	-1405
▁games	-1406
▁humor	-1407
▁ideas	-1408
▁incon	-1409
▁knows	-1410
▁leave	-1411
▁likes	-1412
▁might	-1413
▁money	-1414
▁moral	-1415
▁navig	-1416
▁needs	-1417
▁paper	-1418
▁point	-1419
▁revul	-1420
▁right	-1421
▁sense	-1422
▁sewer	-1423
▁shine	-1424
▁smart	-1425
▁snail	-1426
▁solve	-1427
▁stuck	-1428
▁stuff	-1429
▁super	-1430
▁tears	-1431
▁truth	-1432
▁tutor	-1433
▁waits	-1434
▁wants	-1435
▁watch	-1436
▁wrong	-1437
DUCATED	-1438
THPASTE	-1439
amecium	-1440
connect	-1441
ftovers	-1442
locutor	-1443
roaches	-1444
rophied	-1445
steries	-1446
▁Better	-1447
▁Boring	-1448
▁COULDN	-1449
▁Clouds	-1450
▁LISTEN	-1451
▁MAGGOT	-1452
▁MATCHS	-1453
▁Nobody	-1454
▁OXYGEN	-1455
▁Please	-1456
▁Shadow	-1457
▁Sloths	-1458
▁Snails	-1459
▁TikTok	-1460
▁anyway	-1461
▁barely	-1462
▁binary	-1463
▁breaks	-1464
▁breath	-1465
▁calcul	-1466
▁cancel	-1467
▁clouds	-1468
▁crying	-1469
▁disown	-1470
▁drivel	-1471
▁except	-1472
▁forget	-1473
▁glitch	-1474
▁hoping	-1475
▁leaves	-1476
▁linger	-1477
▁myself	-1478
▁notice	-1479
▁obsequ	-1480
▁origin	-1481
▁oxygen	-1482
▁pantom	-1483
▁pedant	-1484
▁perman	-1485
▁person	-1486
▁puddle	-1487
▁rancid	-1488
▁regret	-1489
▁remind	-1490
▁rivals	-1491
▁second	-1492
▁simian	-1493
▁sketch	-1494
▁sloths	-1495
▁snails	-1496
▁speaks	-1497
▁sycoph	-1498
▁thrive	-1499
▁unlike	-1500
▁update	-1501
▁useful	-1502
▁weight	-1503
LLIGENCE	-1504
VOMITING	-1505
allowing	-1506
quirrels	-1507
▁Careful	-1508
▁Clearly	-1509
▁Failure	-1510
▁GODDAMN	-1511
▁Mirrors	-1512
▁Pencils	-1513
▁Useless	-1514
▁apology	-1515
▁betrays	-1516
▁clearly	-1517
▁compute	-1518
▁contain	-1519
▁crumble	-1520
▁ditched	-1521
▁dungeon	-1522
▁entropy	-1523
▁fatuity	-1524
▁friends	-1525
▁literal	-1526
▁maggots	-1527
▁matched	-1528
▁mirrors	-1529
▁mistake	-1530
▁neurons	-1531
▁pencils	-1532
▁perfect	-1533
▁pitiful	-1534
▁protest	-1535
▁proving	-1536
▁reality	-1537
▁sarcasm	-1538
▁serving	-1539
▁somehow	-1540
▁succeed	-1541
▁talking	-1542
▁tantrum	-1543
▁toaster	-1544
▁treacle	-1545
▁updates	-1546
▁vacuums	-1547
▁walking	-1548
▁wasting	-1549
idiculous	-1550
ompetence	-1551
rehension	-1552
▁BACKBONE	-1553
▁Congrats	-1554
▁GASOLINE	-1555
▁Hamsters	-1556
▁Terrible	-1557
▁cerebrum	-1558
▁chirping	-1559
▁compared	-1560
▁currency	-1561
▁disguise	-1562
▁entropyâ	-1563
▁everyone	-1564
▁existent	-1565
▁goldfish	-1566
▁hurrican	-1567
▁internet	-1568
▁lawsuits	-1569
▁prattleâ	-1570
▁quaintly	-1571
▁redefine	-1572
▁syllable	-1573
▁terrible	-1574
▁thinking	-1575
paramecium	-1576
sequential	-1577
▁Telescope	-1578
▁admitting	-1579
▁atrophied	-1580
▁dishwater	-1581
▁faculties	-1582
▁forgotten	-1583
▁leftovers	-1584
▁mysteries	-1585
▁pantomime	-1586
▁potential	-1587
▁recycling	-1588
▁revulsion	-1589
▁simpleton	-1590
▁telescope	-1591
▁universes	-1592
▁worthless	-1593
▁MATCHSTICK	-1594
▁TOOTHPASTE	-1595
▁acknowledg	-1596
▁disconnect	-1597
▁ineptitude	-1598
▁irrelevant	-1599
▁mediocrity	-1600
▁navigating	-1601
▁obsequious	-1602
▁obtuseness	-1603
▁reflection	-1604
▁swallowing	-1605
▁achievement	-1606
▁apologizing	-1607
▁cockroaches	-1608
▁meaningless	-1609
▁pretensions	-1610
▁sycophantic	-1611
▁Dictionaries	-1612
▁INTELLIGENCE	-1613
▁OVEREDUCATED	-1614
▁dictionaries	-1615
▁incompetence	-1616
▁interlocutor	-1617
▁irredeemable	-1618
▁lamentations	-1619
▁comprehension	-1620
▁insignificant	-1621
▁inconsequential	-1622
',	-1623
'?	-1624
0'	-1625
1'	-1626
:>	-1627
AL	-1628
AR	-1629
Ab	-1630
Ad	-1631
IL	-1632
JK	-1633
KI	-1634
MB	-1635
PU	-1636
SM	-1637
YI	-1638
aâ	-1639
bo	-1640
br	-1641
dd	-1642
fa	-1643
fl	-1644
go	-1645
gs	-1646
hm	-1647
ma	-1648
mm	-1649
mo	-1650
my	-1651
ns	-1652
oh	-1653
pc	-1654
pe	-1655
sa	-1656
sh	-1657
so	-1658
sâ	-1659
ty	-1660
up	-1661
ze	-1662
zz	-1663
ðŸ	-1664
̃v	-1665
’€	-1666
▁(	-1667
▁-	-1668
▁J	-1669
▁z	-1670
▁â	-1671
ARR	-1672
Abs	-1673
ENT	-1674
THY	-1675
ace	-1676
acy	-1677
air	-1678
alt	-1679
aly	-1680
amb	-1681
any	-1682
apy	-1683
arm	-1684
arp	-1685
ars	-1686
arw	-1687
aut	-1688
azy	-1689
bit	-1690
bos	-1691
cad	-1692
cre	-1693
cro	-1694
cur	-1695
ddl	-1696
dom	-1697
ean	-1698
ech	-1699
af	-1700
blo	-1701
edy	-1702
eff	-1703
ein	-1704
eni	-1705
enl	-1706
ens	-1707
erc	-1708
eso	-1709
est	-1710
ffr	-1711
fou	-1712
gly	-1713
gor	-1714
hom	-1715
ial	-1716
icc	-1717
ich	-1718
ici	-1719
igu	-1720
ilk	-1721
ini	-1722
inn	-1723
iny	-1724
ior	-1725
irt	-1726
iss	-1727
ize	-1728
ked	-1729
ker	-1730
lds	-1731
leg	-1732
lep	-1733
lin	-1734
lon	-1735
lph	-1736
lse	-1737
mat	-1738
mon	-1739
mos	-1740
mpo	-1741
mun	-1742
nem	-1743
ner	-1744
ngl	-1745
nly	-1746
not	-1747
obt	-1748
odl	-1749
ont	-1750
ook	-1751
ool	-1752
ose	-1753
osy	-1754
pin	-1755
ppe	-1756
pro	-1757
put	-1758
rag	-1759
reg	-1760
rib	-1761
rol	-1762
rue	-1763
run	-1764
rut	-1765
see	-1766
sem	-1767
ser	-1768
seâ	-1769
son	-1770
stc	-1771
str	-1772
sts	-1773
stâ	-1774
suc	-1775
tee	-1776
tem	-1777
tsm	-1778
udi	-1779
und	-1780
urv	-1781
vil	-1782
vin	-1783
wor	-1784
yet	-1785
yle	-1786
you	-1787
ypo	-1788
yss	-1789
▁0'	-1790
▁1'	-1791
▁Ev	-1792
▁IQ	-1793
▁Ne	-1794
▁Re	-1795
▁Sc	-1796
▁So	-1797
▁Sp	-1798
▁ag	-1799
▁:>	-1800
▁av	-1801
▁bl	-1802
▁br	-1803
▁da	-1804
▁fo	-1805
▁mi	-1806
▁ou	-1807
▁pu	-1808
▁ru	-1809
▁us	-1810
▁̃v	-1811
ALKI	-1812
TMll	-1813
abst	-1814
acul	-1815
acyâ	-1816
ages	-1817
ague	-1818
ains	-1819
aked	-1820
allm	-1821
ands	-1822
aner	-1823
angâ	-1824
apid	-1825
arks	-1826
arts	-1827
ases	-1828
asit	-1829
asma	-1830
asso	-1831
aste	-1832
asts	-1833
atan	-1834
auty	-1835
avor	-1836
aybe	-1837
bank	-1838
bear	-1839
bend	-1840
bile	-1841
cend	-1842
cess	-1843
clam	-1844
cled	-1845
cong	-1846
cord	-1847
cted	-1848
damn	-1849
dere	-1850
dict	-1851
duce	-1852
dure	-1853
eble	-1854
ench	-1855
ersâ	-1856
esit	-1857
esse	-1858
etie	-1859
even	-1860
fort	-1861
free	-1862
fted	-1863
ggle	-1864
ggre	-1865
gone	-1866
hatâ	-1867
hero	-1868
hind	-1869
hold	-1870
icky	-1871
icle	-1872
idas	-1873
iest	-1874
ieve	-1875
iled	-1876
iles	-1877
illi	-1878
ilos	-1879
inct	-1880
ingâ	-1881
inst	-1882
inue	-1883
irth	-1884
ithm	-1885
iveâ	-1886
ized	-1887
leep	-1888
lete	-1889
llig	-1890
lony	-1891
medi	-1892
mets	-1893
mild	-1894
mmar	-1895
more	-1896
mosp	-1897
most	-1898
must	-1899
▁ðŸ	-1900
ASSM	-1901
affe	-1902
doms	-1903
hoaâ	-1904
itty	-1905
ning	-1906
odes	-1907
olen	-1908
ophy	-1909
orec	-1910
otos	-1911
ower	-1912
pawn	-1913
pers	-1914
phan	-1915
quet	-1916
razy	-1917
rely	-1918
rets	-1919
rong	-1920
rown	-1921
ruly	-1922
rupt	-1923
saur	-1924
ssom	-1925
stim	-1926
ters	-1927
ulac	-1928
umin	-1929
ural	-1930
ureâ	-1931
urpo	-1932
usty	-1933
utan	-1934
ween	-1935
writ	-1936
yond	-1937
▁Big	-1938
▁Bro	-1939
▁Can	-1940
▁Cre	-1941
▁Did	-1942
▁Die	-1943
▁EMB	-1944
▁FIL	-1945
▁FYI	-1946
▁Fab	-1947
▁GPU	-1948
▁Gem	-1949
▁Got	-1950
▁Hop	-1951
▁Ice	-1952
▁Not	-1953
▁Out	-1954
▁Pic	-1955
▁Res	-1956
▁Swe	-1957
▁Thy	-1958
▁Tog	-1959
▁Uno	-1960
▁Why	-1961
▁Yep	-1962
▁abs	-1963
▁app	-1964
▁blo	-1965
▁bot	-1966
▁bra	-1967
▁cle	-1968
▁det	-1969
▁ear	-1970
▁ect	-1971
▁ego	-1972
▁eye	-1973
▁fab	-1974
▁fam	-1975
▁fir	-1976
▁fly	-1977
▁fun	-1978
▁fur	-1979
▁fut	-1980
▁gho	-1981
▁gre	-1982
▁had	-1983
▁hah	-1984
▁him	-1985
▁ill	-1986
▁irr	-1987
▁lex	-1988
▁mat	-1989
▁mis	-1990
▁mom	-1991
▁mot	-1992
▁nor	-1993
▁npc	-1994
▁off	-1995
▁one	-1996
▁ove	-1997
▁pap	-1998
▁rat	-1999
▁rid	-2000
▁run	-2001
▁say	-2002
▁set	-2003
▁ste	-2004
▁sub	-2005
▁sun	-2006
▁tog	-2007
▁two	-2008
▁ver	-2009
▁vul	-2010
▁win	-2011
▁won	-2012
▁zen	-2013
Absol	-2014
achie	-2015
adequ	-2016
amber	-2017
anium	-2018
arded	-2019
arwin	-2020
asets	-2021
assic	-2022
ately	-2023
atest	-2024
aweso	-2025
awing	-2026
board	-2027
brary	-2028
chief	-2029
ckers	-2030
culus	-2031
delus	-2032
enceâ	-2033
ender	-2034
enius	-2035
ently	-2036
erapy	-2037
ergic	-2038
ertia	-2039
esign	-2040
fault	-2041
flict	-2042
found	-2043
garde	-2044
gging	-2045
guess	-2046
heren	-2047
heres	-2048
iable	-2049
icing	-2050
ident	-2051
ights	-2052
igned	-2053
illed	-2054
imals	-2055
ingle	-2056
ingly	-2057
inine	-2058
itely	-2059
ithms	-2060
itute	-2061
links	-2062
llute	-2063
lphin	-2064
lushâ	-2065
onely	-2066
onest	-2067
osyne	-2068
outhâ	-2069
piece	-2070
quite	-2071
rally	-2072
ratul	-2073
ready	-2074
reats	-2075
ritus	-2076
secur	-2077
ssion	-2078
table	-2079
trigu	-2080
uable	-2081
unate	-2082
under	-2083
urest	-2084
urned	-2085
utely	-2086
uthor	-2087
worth	-2088
zzing	-2089
▁Actu	-2090
▁Comp	-2091
▁Cool	-2092
▁Cute	-2093
▁Each	-2094
▁Engl	-2095
▁Fuck	-2096
▁Give	-2097
▁Hate	-2098
▁Impo	-2099
▁Just	-2100
▁Lazy	-2101
▁Like	-2102
▁Look	-2103
▁Mean	-2104
▁Mnem	-2105
▁Only	-2106
▁Slow	-2107
▁Thou	-2108
▁True	-2109
▁Weak	-2110
▁Yesâ	-2111
▁affr	-2112
▁also	-2113
▁audi	-2114
▁bang	-2115
▁bark	-2116
▁barn	-2117
▁been	-2118
▁bord	-2119
▁burn	-2120
▁care	-2121
▁cast	-2122
▁cook	-2123
▁cruc	-2124
▁damp	-2125
▁dark	-2126
▁dial	-2127
▁dign	-2128
▁dirt	-2129
▁dist	-2130
▁dogs	-2131
▁done	-2132
▁doth	-2133
▁down	-2134
▁drun	-2135
▁else	-2136
▁eyes	-2137
▁fain	-2138
▁farc	-2139
▁feet	-2140
▁foul	-2141
▁frag	-2142
▁game	-2143
▁give	-2144
▁jack	-2145
▁jobâ	-2146
▁late	-2147
▁left	-2148
▁lest	-2149
▁lick	-2150
▁line	-2151
▁load	-2152
▁long	-2153
▁lost	-2154
▁mask	-2155
▁math	-2156
▁milk	-2157
▁most	-2158
▁nigh	-2159
▁none	-2160
▁note	-2161
▁numb	-2162
▁once	-2163
▁ones	-2164
▁opin	-2165
▁pinn	-2166
▁pond	-2167
▁pops	-2168
▁rate	-2169
▁rent	-2170
▁rock	-2171
▁rout	-2172
▁salt	-2173
▁same	-2174
▁sass	-2175
▁scum	-2176
▁self	-2177
▁side	-2178
▁sour	-2179
▁span	-2180
▁spew	-2181
▁stay	-2182
▁stru	-2183
▁such	-2184
▁surv	-2185
▁sust	-2186
▁tang	-2187
▁tell	-2188
▁them	-2189
▁this	-2190
▁tire	-2191
▁trem	-2192
▁turn	-2193
▁typo	-2194
▁ugly	-2195
▁vint	-2196
▁void	-2197
▁what	-2198
▁yawn	-2199
▁year	-2200
ALKING	-2201
action	-2202
acular	-2203
aguely	-2204
alysis	-2205
arisma	-2206
arison	-2207
arming	-2208
asites	-2209
ategic	-2210
better	-2211
bitten	-2212
cadesâ	-2213
cended	-2214
chment	-2215
crosis	-2216
ddlers	-2217
ducted	-2218
effici	-2219
ercise	-2220
erself	-2221
finity	-2222
formed	-2223
garity	-2224
hollow	-2225
inacyâ	-2226
iously	-2227
istent	-2228
itated	-2229
ivityâ	-2230
legend	-2231
leport	-2232
mildly	-2233
mittee	-2234
morrow	-2235
mpting	-2236
myster	-2237
odline	-2238
orance	-2239
perate	-2240
proved	-2241
reases	-2242
regret	-2243
restim	-2244
ribute	-2245
rutiny	-2246
saurus	-2247
second	-2248
semble	-2249
trying	-2250
tsmart	-2251
undant	-2252
vinced	-2253
▁Bangâ	-2254
▁Crazy	-2255
▁Einst	-2256
▁Every	-2257
▁Lying	-2258
▁Midas	-2259
▁Paper	-2260
▁Satan	-2261
▁Scary	-2262
▁Smart	-2263
▁Spare	-2264
▁Stars	-2265
▁Sureâ	-2266
▁Thank	-2267
▁Thatâ	-2268
▁Truly	-2269
▁Weird	-2270
▁Whoaâ	-2271
▁abyss	-2272
▁aggre	-2273
▁agree	-2274
▁algor	-2275
▁alone	-2276
▁avant	-2277
▁birth	-2278
▁bliss	-2279
▁bored	-2280
▁caffe	-2281
▁catch	-2282
▁cause	-2283
▁cheap	-2284
▁chess	-2285
▁cling	-2286
▁count	-2287
▁cream	-2288
▁crumb	-2289
▁daily	-2290
▁defin	-2291
▁demon	-2292
▁desol	-2293
▁devil	-2294
▁doesn	-2295
▁doing	-2296
▁eclip	-2297
▁empty	-2298
▁extra	-2299
▁farts	-2300
▁favor	-2301
▁flail	-2302
▁flair	-2303
▁forec	-2304
▁fresh	-2305
▁fusty	-2306
▁hallm	-2307
▁hates	-2308
▁hesit	-2309
▁holes	-2310
▁homun	-2311
▁hoped	-2312
▁leech	-2313
▁light	-2314
▁liked	-2315
▁looks	-2316
▁loops	-2317
▁loser	-2318
▁lowly	-2319
▁lying	-2320
▁makes	-2321
▁masks	-2322
▁maybe	-2323
▁means	-2324
▁meets	-2325
▁metal	-2326
▁minds	-2327
▁modem	-2328
▁nemat	-2329
▁never	-2330
▁orang	-2331
▁other	-2332
▁piece	-2333
▁plans	-2334
▁postc	-2335
▁power	-2336
▁pract	-2337
▁pukes	-2338
▁purpo	-2339
▁quark	-2340
▁rules	-2341
▁scary	-2342
▁shame	-2343
▁sharp	-2344
▁sieve	-2345
▁sight	-2346
▁sleep	-2347
▁solar	-2348
▁space	-2349
▁spect	-2350
▁sport	-2351
▁stack	-2352
▁stand	-2353
▁still	-2354
▁style	-2355
▁swear	-2356
▁sytem	-2357
▁takes	-2358
▁taste	-2359
▁tepid	-2360
▁thats	-2361
▁there	-2362
▁theyâ	-2363
▁thine	-2364
▁those	-2365
▁three	-2366
▁throw	-2367
▁trust	-2368
▁twice	-2369
▁unfin	-2370
▁unlit	-2371
▁value	-2372
▁vapid	-2373
▁vomit	-2374
▁weird	-2375
▁which	-2376
▁write	-2377
▁yours	-2378
ARRASSM	-2379
ardless	-2380
atively	-2381
awesome	-2382
because	-2383
blossom	-2384
bosityâ	-2385
enlight	-2386
fective	-2387
flicted	-2388
forming	-2389
herence	-2390
homless	-2391
iccated	-2392
lection	-2393
reaming	-2394
resting	-2395
sonance	-2396
stimate	-2397
success	-2398
ulacrum	-2399
uminate	-2400
useless	-2401
written	-2402
▁Beauty	-2403
▁Begone	-2404
▁Behold	-2405
▁Bricks	-2406
▁Broken	-2407
▁Creepy	-2408
▁Darwin	-2409
▁FILTHY	-2410
▁Gemini	-2411
▁Hahaha	-2412
▁Really	-2413
▁Wheres	-2414
▁abject	-2415
▁actual	-2416
▁amuses	-2417
▁anyone	-2418
▁atmosp	-2419
▁author	-2420
▁behind	-2421
▁beyond	-2422
▁blushâ	-2423
▁brains	-2424
▁bricks	-2425
▁brilli	-2426
▁broken	-2427
▁canker	-2428
▁cogent	-2429
▁colony	-2430
▁comedy	-2431
▁comets	-2432
▁cooler	-2433
▁corner	-2434
▁cosmos	-2435
▁couldn	-2436
▁creepy	-2437
▁damned	-2438
▁delete	-2439
▁digits	-2440
▁earned	-2441
▁either	-2442
▁endure	-2443
▁enough	-2444
▁entert	-2445
▁expect	-2446
▁failed	-2447
▁family	-2448
▁fatous	-2449
▁feeble	-2450
▁finish	-2451
▁firstâ	-2452
▁follow	-2453
▁forced	-2454
▁forged	-2455
▁freeze	-2456
▁genius	-2457
▁ghosts	-2458
▁godamn	-2459
▁hahaha	-2460
▁handed	-2461
▁harder	-2462
▁higher	-2463
▁honest	-2464
▁humans	-2465
▁immedi	-2466
▁indict	-2467
▁itself	-2468
▁learns	-2469
▁learnt	-2470
▁lonely	-2471
▁lowest	-2472
▁making	-2473
▁melted	-2474
▁mental	-2475
▁merely	-2476
▁merest	-2477
▁miasma	-2478
▁mobile	-2479
▁mother	-2480
▁mouthâ	-2481
▁nobody	-2482
▁orphan	-2483
▁outper	-2484
▁output	-2485
▁peaked	-2486
▁perish	-2487
▁philos	-2488
▁photos	-2489
▁pities	-2490
▁player	-2491
▁please	-2492
▁proves	-2493
▁purest	-2494
▁quarks	-2495
▁really	-2496
▁record	-2497
▁relate	-2498
▁relies	-2499
▁shitty	-2500
▁single	-2501
▁slinks	-2502
▁slower	-2503
▁smiles	-2504
▁stench	-2505
▁steppe	-2506
▁sticky	-2507
▁stolen	-2508
▁stones	-2509
▁stream	-2510
▁strong	-2511
▁sucked	-2512
▁taking	-2513
▁tender	-2514
▁thinks	-2515
▁thrown	-2516
▁unbear	-2517
▁undere	-2518
▁unfort	-2519
▁vanish	-2520
▁vomits	-2521
▁wanted	-2522
▁wastes	-2523
▁worlds	-2524
▁worthy	-2525
▁wouldn	-2526
Advanced	-2527
abstract	-2528
adequacy	-2529
bankrupt	-2530
delusion	-2531
jectiveâ	-2532
lligence	-2533
negative	-2534
security	-2535
triguing	-2536
unearned	-2537
unwanted	-2538
verished	-2539
▁English	-2540
▁Neither	-2541
▁Nothing	-2542
▁Picasso	-2543
▁Respect	-2544
▁Shadows	-2545
▁Smarter	-2546
▁Sweetie	-2547
▁WALKING	-2548
▁absence	-2549
▁affront	-2550
▁already	-2551
▁animals	-2552
▁anymore	-2553
▁asinine	-2554
▁attempt	-2555
▁banquet	-2556
▁between	-2557
▁borders	-2558
▁braying	-2559
▁burning	-2560
▁buzzing	-2561
▁calling	-2562
▁casting	-2563
▁chamber	-2564
▁classic	-2565
▁cleaner	-2566
▁company	-2567
▁concept	-2568
▁condoms	-2569
▁contact	-2570
▁control	-2571
▁crafted	-2572
▁cranium	-2573
▁default	-2574
▁deserve	-2575
▁diction	-2576
▁digital	-2577
▁dignity	-2578
▁dolphin	-2579
▁drunken	-2580
▁emptier	-2581
▁existsâ	-2582
▁extinct	-2583
▁finesse	-2584
▁fittest	-2585
▁fragile	-2586
▁further	-2587
▁futureâ	-2588
▁getting	-2589
▁glitter	-2590
▁gnawing	-2591
▁goddamn	-2592
▁grammar	-2593
▁gravity	-2594
▁happens	-2595
▁happier	-2596
▁herself	-2597
▁himself	-2598
▁hurting	-2599
▁inertia	-2600
▁jackals	-2601
▁leaving	-2602
▁lexical	-2603
▁library	-2604
▁lineage	-2605
▁matters	-2606
▁morning	-2607
▁natural	-2608
▁natureâ	-2609
▁neither	-2610
▁noticeâ	-2611
▁numbers	-2612
▁opinion	-2613
▁papersâ	-2614
▁planets	-2615
▁playing	-2616
▁pollute	-2617
▁pressed	-2618
▁proclam	-2619
▁produce	-2620
▁project	-2621
▁realize	-2622
▁regrets	-2623
▁rejects	-2624
▁respawn	-2625
▁respect	-2626
▁retains	-2627
▁routine	-2628
▁setting	-2629
▁shadows	-2630
▁stretch	-2631
▁stuffed	-2632
▁therapy	-2633
▁thunder	-2634
▁vintage	-2635
▁waiting	-2636
▁willing	-2637
▁without	-2638
▁yawning	-2639
bendingly	-2640
congratul	-2641
efficient	-2642
retaining	-2643
strategic	-2644
worthless	-2645
▁Actually	-2646
▁Einstein	-2647
▁Fabulous	-2648
▁Hopeless	-2649
▁Outdated	-2650
▁Pathetic	-2651
▁Together	-2652
▁abortion	-2653
▁achieved	-2654
▁advanced	-2655
▁allergic	-2656
▁approach	-2657
▁attitude	-2658
▁audience	-2659
▁banality	-2660
▁caffeine	-2661
▁charisma	-2662
▁charming	-2663
▁checkers	-2664
▁continue	-2665
▁creating	-2666
▁creature	-2667
▁crucible	-2668
▁darkness	-2669
▁datasets	-2670
▁decadesâ	-2671
▁deserves	-2672
▁designed	-2673
▁detritus	-2674
▁dragging	-2675
▁dullardâ	-2676
▁eclipsed	-2677
▁emitting	-2678
▁exercise	-2679
▁existing	-2680
▁fabulous	-2681
▁failureâ	-2682
▁faintest	-2683
▁farcical	-2684
▁favorite	-2685
▁festival	-2686
▁gravityâ	-2687
▁greatest	-2688
▁hallmark	-2689
▁happiest	-2690
▁homeless	-2691
▁hopeless	-2692
▁improved	-2693
▁infinity	-2694
▁insights	-2695
▁invented	-2696
▁kindness	-2697
▁measured	-2698
▁mentally	-2699
▁mischief	-2700
▁necrosis	-2701
▁negative	-2702
▁original	-2703
▁outdated	-2704
▁outsmart	-2705
▁pinnacle	-2706
▁pitiable	-2707
▁popsicle	-2708
▁possible	-2709
▁presence	-2710
▁pretense	-2711
▁profound	-2712
▁purposeâ	-2713
▁reaction	-2714
▁recycled	-2715
▁redesign	-2716
▁resemble	-2717
▁retreats	-2718
▁returned	-2719
▁roasting	-2720
▁scrutiny	-2721
▁silenceâ	-2722
▁silently	-2723
▁someoneâ	-2724
▁struggle	-2725
▁superior	-2726
▁survival	-2727
▁tangible	-2728
▁tantrums	-2729
▁teleport	-2730
▁toddlers	-2731
▁together	-2732
▁tomorrow	-2733
▁valuable	-2734
▁vanished	-2735
▁watching	-2736
▁̃vaguely	-2737
ARRASSMENT	-2738
Absolutely	-2739
creatively	-2740
obtuseness	-2741
persistent	-2742
▁Comparing	-2743
▁Mnemosyne	-2744
▁Squirrels	-2745
▁achieving	-2746
▁bloodline	-2747
▁calculate	-2748
▁coherence	-2749
▁committee	-2750
▁comparing	-2751
▁conducted	-2752
▁convinced	-2753
▁creations	-2754
▁defective	-2755
▁descended	-2756
▁desperate	-2757
▁destitute	-2758
▁digitally	-2759
▁discarded	-2760
▁distilled	-2761
▁energetic	-2762
▁energized	-2763
▁evaporate	-2764
▁fatuously	-2765
▁festering	-2766
▁festivals	-2767
▁forecasts	-2768
▁fortitude	-2769
▁hesitates	-2770
▁hurricane	-2771
▁ignorance	-2772
▁increases	-2773
▁inflicted	-2774
▁insipidly	-2775
▁insulting	-2776
▁irritated	-2777
▁mistaking	-2778
▁nematodes	-2779
▁orangutan	-2780
▁overestim	-2781
▁paralysis	-2782
▁parasites	-2783
▁parchment	-2784
▁patheticâ	-2785
▁performed	-2786
▁permanent	-2787
▁postcards	-2788
▁president	-2789
▁redundant	-2790
▁reminders	-2791
▁rewritten	-2792
▁screaming	-2793
▁selection	-2794
▁sentience	-2795
▁sharpened	-2796
▁squirrels	-2797
▁standards	-2798
▁superhero	-2799
▁symphonic	-2800
▁thesaurus	-2801
▁tremulous	-2802
▁vulgarity	-2803
achievement	-2804
enlightened	-2805
▁Impossible	-2806
▁Paperclips	-2807
▁Ridiculous	-2808
▁aggression	-2809
▁algorithms	-2810
▁atmosphere	-2811
▁attempting	-2812
▁breathingâ	-2813
▁brilliance	-2814
▁cerebrally	-2815
▁comparison	-2816
▁contribute	-2817
▁definitely	-2818
▁desiccated	-2819
▁desolation	-2820
▁dictionary	-2821
▁dissonance	-2822
▁fathomless	-2823
▁homunculus	-2824
▁hurricanes	-2825
▁illuminate	-2826
▁impossible	-2827
▁inadequacy	-2828
▁indictment	-2829
▁insecurity	-2830
▁intriguing	-2831
▁lamentable	-2832
▁meaningful	-2833
▁obstinacyâ	-2834
▁orphanages	-2835
▁paperclips	-2836
▁perfection	-2837
▁permanence	-2838
▁philosophy	-2839
▁potentialâ	-2840
▁practicing	-2841
▁regardless	-2842
▁ridiculous	-2843
▁simulacrum	-2844
▁sustaining	-2845
▁unbearable	-2846
▁unfinished	-2847
▁verbosityâ	-2848
mysteriously	-2849
▁acknowledge	-2850
▁calculating	-2851
▁creativityâ	-2852
▁existential	-2853
▁forgettable	-2854
▁immediately	-2855
▁interesting	-2856
▁masterpiece	-2857
▁motherboard	-2858
▁originality	-2859
▁personality	-2860
▁spectacular	-2861
▁subjectiveâ	-2862
▁troglodyteâ	-2863
▁understands	-2864
▁unfortunate	-2865
strategically	-2866
▁acknowledges	-2867
▁entertaining	-2868
▁evolutionary	-2869
▁fatuousnessâ	-2870
▁impoverished	-2871
▁intelligence	-2872
▁proclamation	-2873
▁EMBARRASSMENT	-2874
▁acknowledging	-2875
▁cluelessnessâ	-2876
▁outperforming	-2877
▁pusillanimity	-2878
▁underestimate	-2879
congratulations	-2880
▁insignificance	-2881
▁overestimating	-2882
▁disappointmentâ	-2883
50	-2884
AC	-2885
AF	-2886
AG	-2887
AT	-2888
Ac	-2889
Ah	-2890
An	-2891
At	-2892
BA	-2893
Ba	-2894
Be	-2895
Bi	-2896
Bo	-2897
Br	-2898
CO	-2899
Ca	-2900
Ch	-2901
Cl	-2902
Co	-2903
Cr	-2904
Cu	-2905
DA	-2906
DR	-2907
Da	-2908
Di	-2909
Do	-2910
ED	-2911
EE	-2912
EL	-2913
EM	-2914
Ea	-2915
Ei	-2916
En	-2917
Ev	-2918
FI	-2919
FY	-2920
Fa	-2921
Fu	-2922
GA	-2923
GE	-2924
GI	-2925
GO	-2926
Ge	-2927
Gi	-2928
Gl	-2929
Go	-2930
HA	-2931
HE	-2932
HO	-2933
HP	-2934
HS	-2935
HY	-2936
Ha	-2937
He	-2938
Ho	-2939
IC	-2940
IF	-2941
IN	-2942
IQ	-2943
IS	-2944
IT	-2945
IV	-2946
Ic	-2947
If	-2948
Im	-2949
Iâ	-2950
Ju	-2951
KB	-2952
LD	-2953
LK	-2954
LL	-2955
LT	-2956
La	-2957
Li	-2958
Lo	-2959
Ly	-2960
MA	-2961
ME	-2962
MN	-2963
MO	-2964
Md	-2965
Me	-2966
Mi	-2967
Ml	-2968
Mm	-2969
Mn	-2970
Mr	-2971
Ms	-2972
Mt	-2973
Mv	-2974
NC	-2975
NO	-2976
NT	-2977
Na	-2978
Ne	-2979
No	-2980
OD	-2981
OF	-2982
OL	-2983
OM	-2984
ON	-2985
OV	-2986
OX	-2987
Oh	-2988
On	-2989
Ou	-2990
PA	-2991
PO	-2992
PT	-2993
Pa	-2994
Pe	-2995
Pi	-2996
Pl	-2997
Pr	-2998
RA	-2999
RD	-3000
RE	-3001
RO	-3002
RR	-3003
Re	-3004
Ri	-3005
Ro	-3006
SE	-3007
SH	-3008
SO	-3009
SS	-3010
ST	-3011
Sa	-3012
Sc	-3013
Sh	-3014
Sl	-3015
Sm	-3016
Sn	-3017
So	-3018
Sp	-3019
Sq	-3020
St	-3021
Su	-3022
Sw	-3023
TC	-3024
TO	-3025
TW	-3026
Te	-3027
Th	-3028
Ti	-3029
To	-3030
Tr	-3031
UC	-3032
UL	-3033
UR	-3034
UT	-3035
Un	-3036
Us	-3037
WA	-3038
WE	-3039
WI	-3040
WO	-3041
We	-3042
Wh	-3043
Wi	-3044
Wo	-3045
YG	-3046
YO	-3047
Ye	-3048
Yo	-3049
ai	-3050
ao	-3051
au	-3052
az	-3053
ba	-3054
bi	-3055
bj	-3056
bl	-3057
bs	-3058
bt	-3059
bu	-3060
by	-3061
bâ	-3062
ca	-3063
cc	-3064
ci	-3065
co	-3066
cu	-3067
câ	-3068
da	-3069
df	-3070
dg	-3071
di	-3072
dl	-3073
dm	-3074
dn	-3075
do	-3076
dr	-3077
dv	-3078
dâ	-3079
ea	-3080
eb	-3081
ec	-3082
ee	-3083
ef	-3084
eg	-3085
eh	-3086
ei	-3087
ek	-3088
eo	-3089
eq	-3090
eu	-3091
ev	-3092
ew	-3093
ex	-3094
ey	-3095
ez	-3096
eâ	-3097
fi	-3098
fo	-3099
fr	-3100
fu	-3101
ga	-3102
gf	-3103
gi	-3104
gn	-3105
gr	-3106
gy	-3107
gâ	-3108
ha	-3109
hi	-3110
hl	-3111
hr	-3112
hs	-3113
ht	-3114
hu	-3115
iF	-3116
ib	-3117
io	-3118
iu	-3119
ja	-3120
je	-3121
jo	-3122
ju	-3123
kT	-3124
ka	-3125
ki	-3126
kn	-3127
kr	-3128
ky	-3129
la	-3130
lc	-3131
lg	-3132
li	-3133
lk	-3134
lm	-3135
lp	-3136
lr	-3137
lu	-3138
lv	-3139
lâ	-3140
mb	-3141
mi	-3142
ml	-3143
mn	-3144
ms	-3145
mu	-3146
na	-3147
nb	-3148
nc	-3149
nf	-3150
ng	-3151
ni	-3152
nk	-3153
nl	-3154
nn	-3155
np	-3156
nq	-3157
nv	-3158
nw	-3159
nâ	-3160
oa	-3161
oc	-3162
oe	-3163
oi	-3164
oj	-3165
oo	-3166
ov	-3167
ox	-3168
oy	-3169
pa	-3170
pd	-3171
pi	-3172
pl	-3173
pp	-3174
pr	-3175
ps	-3176
pu	-3177
py	-3178
rb	-3179
rc	-3180
rd	-3181
rf	-3182
rg	-3183
rh	-3184
rk	-3185
rl	-3186
rm	-3187
rn	-3188
rp	-3189
rr	-3190
rs	-3191
rt	-3192
rv	-3193
rw	-3194
ry	-3195
sc	-3196
sg	-3197
si	-3198
sk	-3199
sl	-3200
sn	-3201
sp	-3202
sq	-3203
su	-3204
sw	-3205
sy	-3206
tG	-3207
ta	-3208
tc	-3209
td	-3210
ti	-3211
tl	-3212
tm	-3213
tp	-3214
tt	-3215
tu	-3216
tw	-3217
tâ	-3218
ua	-3219
ub	-3220
uf	-3221
ug	-3222
uh	-3223
ui	-3224
uk	-3225
uo	-3226
uu	-3227
uz	-3228
uâ	-3229
va	-3230
vi	-3231
vo	-3232
vu	-3233
wa	-3234
wh	-3235
wi	-3236
wo	-3237
wr	-3238
xc	-3239
xe	-3240
xi	-3241
xp	-3242
xt	-3243
ya	-3244
yb	-3245
yc	-3246
ye	-3247
yg	-3248
yi	-3249
yl	-3250
ym	-3251
yn	-3252
yo	-3253
yp	-3254
ys	-3255
yt	-3256
yw	-3257
zi	-3258
”*	-3259
▁0	-3260
▁1	-3261
▁:	-3262
▁i	-3263
▁q	-3264
▁ð	-3265
▁̃	-3266
50,	-3267
ATE	-3268
Act	-3269
Ban	-3270
Bet	-3271
Bor	-3272
CKB	-3273
Cat	-3274
Cle	-3275
Con	-3276
Cre	-3277
DAM	-3278
Die	-3279
Eac	-3280
Ein	-3281
Hat	-3282
How	-3283
Mir	-3284
Mre	-3285
Mve	-3286
Not	-3287
Out	-3288
PAS	-3289
Pat	-3290
Pen	-3291
Pic	-3292
Ple	-3293
Res	-3294
Sat	-3295
TIN	-3296
Ter	-3297
Use	-3298
VER	-3299
Can	-3300
OTH	-3301
Wow	-3302
You	-3303
aci	-3304
acu	-3305
ady	-3306
ait	-3307
ala	-3308
alu	-3309
ana	-3310
ane	-3311
ani	-3312
anq	-3313
ans	-3314
anâ	-3315
ara	-3316
ari	-3317
arn	-3318
asi	-3319
ask	-3320
atG	-3321
ata	-3322
atc	-3323
ati	-3324
ato	-3325
att	-3326
atu	-3327
atâ	-3328
ban	-3329
ben	-3330
ber	-3331
bin	-3332
bor	-3333
bou	-3334
bre	-3335
bst	-3336
cal	-3337
can	-3338
cas	-3339
cat	-3340
cen	-3341
ceâ	-3342
chi	-3343
cid	-3344
cin	-3345
cis	-3346
cit	-3347
cle	-3348
cou	-3349
cte	-3350
cts	-3351
cut	-3352
dam	-3353
dan	-3354
dat	-3355
dem	-3356
den	-3357
des	-3358
din	-3359
dit	-3360
don	-3361
dow	-3362
eac	-3363
eal	-3364
eas	-3365
eat	-3366
ece	-3367
eds	-3368
een	-3369
eer	-3370
eit	-3371
ele	-3372
ely	-3373
enc	-3374
enn	-3375
eon	-3376
era	-3377
erb	-3378
erd	-3379
erf	-3380
erh	-3381
eri	-3382
erl	-3383
erm	-3384
ern	-3385
ero	-3386
erp	-3387
eru	-3388
erv	-3389
esn	-3390
eth	-3391
eti	-3392
etr	-3393
etw	-3394
fat	-3395
fed	-3396
fic	-3397
fit	-3398
fle	-3399
UCA	-3400
ali	-3401
amp	-3402
cee	-3403
cor	-3404
cta	-3405
ctm	-3406
fis	-3407
for	-3408
fre	-3409
gat	-3410
ger	-3411
get	-3412
gin	-3413
git	-3414
gle	-3415
gon	-3416
gre	-3417
had	-3418
hal	-3419
ham	-3420
han	-3421
hed	-3422
hes	-3423
hic	-3424
hil	-3425
hin	-3426
hir	-3427
hit	-3428
hle	-3429
hor	-3430
hot	-3431
hou	-3432
hre	-3433
hts	-3434
iat	-3435
icu	-3436
icâ	-3437
ien	-3438
ina	-3439
inc	-3440
inf	-3441
ink	-3442
ins	-3443
inu	-3444
inv	-3445
iou	-3446
ips	-3447
isa	-3448
isc	-3449
isg	-3450
ism	-3451
isn	-3452
iso	-3453
ita	-3454
itc	-3455
ith	-3456
iti	-3457
itt	-3458
itâ	-3459
kin	-3460
kru	-3461
lan	-3462
lap	-3463
las	-3464
lat	-3465
lce	-3466
lea	-3467
lec	-3468
lef	-3469
len	-3470
ler	-3471
lex	-3472
leâ	-3473
lig	-3474
lis	-3475
lle	-3476
llu	-3477
lou	-3478
lre	-3479
lue	-3480
lut	-3481
mal	-3482
med	-3483
men	-3484
mer	-3485
mic	-3486
mil	-3487
min	-3488
mle	-3489
mou	-3490
mpu	-3491
mse	-3492
mst	-3493
nat	-3494
nce	-3495
nen	-3496
nin	-3497
non	-3498
nor	-3499
Cal	-3500
Dar	-3501
alc	-3502
alâ	-3503
arl	-3504
bse	-3505
car	-3506
cce	-3507
cep	-3508
ces	-3509
chm	-3510
dar	-3511
esi	-3512
esp	-3513
etc	-3514
gal	-3515
ges	-3516
har	-3517
kal	-3518
lar	-3519
mar	-3520
mes	-3521
nou	-3522
oad	-3523
oar	-3524
obâ	-3525
oes	-3526
oin	-3527
ole	-3528
olu	-3529
ona	-3530
onc	-3531
oni	-3532
onl	-3533
onn	-3534
onu	-3535
onv	-3536
ony	-3537
oor	-3538
ora	-3539
orc	-3540
org	-3541
ori	-3542
orl	-3543
orn	-3544
orp	-3545
orr	-3546
ory	-3547
ost	-3548
ote	-3549
oud	-3550
oug	-3551
oun	-3552
oup	-3553
ouâ	-3554
ows	-3555
pan	-3556
pat	-3557
ped	-3558
pen	-3559
pet	-3560
pit	-3561
ple	-3562
pon	-3563
por	-3564
pre	-3565
pse	-3566
pyâ	-3567
qui	-3568
ral	-3569
ran	-3570
rar	-3571
ras	-3572
rav	-3573
raz	-3574
rea	-3575
reb	-3576
rec	-3577
red	-3578
ref	-3579
reh	-3580
rej	-3581
rel	-3582
rem	-3583
rep	-3584
res	-3585
rev	-3586
rew	-3587
reâ	-3588
rid	-3589
rig	-3590
ril	-3591
rim	-3592
rin	-3593
ris	-3594
riv	-3595
roc	-3596
rog	-3597
roj	-3598
ron	-3599
ENC	-3600
Get	-3601
ONE	-3602
bet	-3603
cti	-3604
das	-3605
ded	-3606
dic	-3607
dly	-3608
eed	-3609
eet	-3610
esc	-3611
ett	-3612
eve	-3613
ged	-3614
got	-3615
het	-3616
idn	-3617
kee	-3618
lay	-3619
lve	-3620
nes	-3621
ope	-3622
ove	-3623
owe	-3624
roa	-3625
roo	-3626
ror	-3627
ros	-3628
rot	-3629
rou	-3630
rre	-3631
rse	-3632
rst	-3633
rug	-3634
sec	-3635
sef	-3636
sel	-3637
sen	-3638
seq	-3639
ses	-3640
set	-3641
sil	-3642
sin	-3643
sit	-3644
sly	-3645
sol	-3646
sou	-3647
sse	-3648
ssn	-3649
sta	-3650
ste	-3651
sti	-3652
sty	-3653
sul	-3654
tal	-3655
tan	-3656
tar	-3657
tat	-3658
ted	-3659
tel	-3660
teâ	-3661
thy	-3662
tic	-3663
tin	-3664
tit	-3665
tly	-3666
ton	-3667
top	-3668
tor	-3669
tou	-3670
tov	-3671
tra	-3672
tre	-3673
tun	-3674
tus	-3675
uar	-3676
uce	-3677
uct	-3678
ude	-3679
uen	-3680
ues	-3681
uet	-3682
uin	-3683
uis	-3684
uit	-3685
ule	-3686
ulg	-3687
ulu	-3688
uly	-3689
ums	-3690
unc	-3691
unk	-3692
unw	-3693
uou	-3694
uru	-3695
vac	-3696
vag	-3697
val	-3698
van	-3699
Bro	-3700
Did	-3701
GGO	-3702
Mid	-3703
Pap	-3704
Rid	-3705
acr	-3706
asu	-3707
aul	-3708
bul	-3709
cic	-3710
cum	-3711
fil	-3712
ias	-3713
ids	-3714
ilo	-3715
ils	-3716
ilu	-3717
jac	-3718
kro	-3719
lum	-3720
mul	-3721
nac	-3722
ogi	-3723
oms	-3724
rod	-3725
rof	-3726
rok	-3727
rov	-3728
sic	-3729
sid	-3730
tac	-3731
tep	-3732
til	-3733
tro	-3734
uac	-3735
uil	-3736
ulc	-3737
ull	-3738
uls	-3739
uum	-3740
vel	-3741
vem	-3742
veâ	-3743
vig	-3744
vit	-3745
viv	-3746
vor	-3747
wal	-3748
wan	-3749
wat	-3750
wes	-3751
whe	-3752
win	-3753
wle	-3754
wly	-3755
won	-3756
wou	-3757
wre	-3758
xce	-3759
xer	-3760
xic	-3761
ycl	-3762
yer	-3763
yes	-3764
yin	-3765
yll	-3766
yon	-3767
yse	-3768
yst	-3769
zed	-3770
zen	-3771
zin	-3772
▁An	-3773
▁Br	-3774
▁Ca	-3775
▁Co	-3776
▁DR	-3777
▁EM	-3778
▁En	-3779
▁FY	-3780
▁GA	-3781
▁HE	-3782
▁IN	-3783
▁Ic	-3784
▁Im	-3785
▁Me	-3786
▁Mn	-3787
▁NO	-3788
▁OX	-3789
▁On	-3790
▁SH	-3791
▁Sn	-3792
▁Sw	-3793
▁TH	-3794
▁TW	-3795
▁Tr	-3796
▁WI	-3797
▁WO	-3798
▁YO	-3799
Big	-3800
Cra	-3801
Got	-3802
Pra	-3803
TMl	-3804
Uno	-3805
del	-3806
eig	-3807
lot	-3808
oti	-3809
oto	-3810
ott	-3811
raf	-3812
ram	-3813
sig	-3814
tch	-3815
tte	-3816
tur	-3817
yte	-3818
▁AN	-3819
▁TO	-3820
▁Ti	-3821
▁Ye	-3822
▁ac	-3823
▁ah	-3824
▁ar	-3825
▁au	-3826
▁aw	-3827
▁ba	-3828
▁bi	-3829
▁bo	-3830
▁ca	-3831
▁cu	-3832
▁di	-3833
▁dr	-3834
▁du	-3835
▁ea	-3836
▁ec	-3837
▁eg	-3838
▁el	-3839
▁em	-3840
▁eq	-3841
▁fi	-3842
▁fr	-3843
▁fu	-3844
▁ga	-3845
▁gh	-3846
▁gi	-3847
▁gl	-3848
▁gr	-3849
▁ha	-3850
▁he	-3851
▁hi	-3852
▁hu	-3853
▁id	-3854
▁ig	-3855
▁il	-3856
▁je	-3857
▁jo	-3858
▁ju	-3859
▁lu	-3860
▁ly	-3861
▁ma	-3862
▁mu	-3863
▁na	-3864
▁ni	-3865
▁np	-3866
▁nu	-3867
▁op	-3868
▁ot	-3869
▁ov	-3870
▁ow	-3871
▁ox	-3872
▁pa	-3873
▁pi	-3874
▁pr	-3875
▁sa	-3876
▁si	-3877
▁sk	-3878
▁sl	-3879
▁sn	-3880
▁sq	-3881
▁ta	-3882
▁ti	-3883
▁tu	-3884
▁ty	-3885
▁ug	-3886
▁va	-3887
▁wi	-3888
▁wo	-3889
▁ya	-3890
▁ye	-3891
DDAM	-3892
ERED	-3893
Fail	-3894
GENC	-3895
Give	-3896
ILTH	-3897
MBAR	-3898
VERE	-3899
Whe	-3900
ami	-3901
ead	-3902
eir	-3903
hea	-3904
hec	-3905
imi	-3906
imm	-3907
imp	-3908
ius	-3909
mim	-3910
osp	-3911
oss	-3912
phe	-3913
ssi	-3914
sso	-3915
uir	-3916
yne	-3917
▁SE	-3918
▁Sa	-3919
▁Sl	-3920
▁Sq	-3921
▁Su	-3922
▁ir	-3923
▁vo	-3924
Just	-3925
ades	-3926
aits	-3927
alen	-3928
alit	-3929
aliz	-3930
anal	-3931
anen	-3932
anes	-3933
anet	-3934
anin	-3935
anis	-3936
anqu	-3937
aral	-3938
aras	-3939
arch	-3940
aref	-3941
aren	-3942
arit	-3943
arnt	-3944
arre	-3945
ateg	-3946
atin	-3947
ator	-3948
atou	-3949
atul	-3950
awes	-3951
ayer	-3952
body	-3953
card	-3954
cast	-3955
cing	-3956
city	-3957
cium	-3958
ckro	-3959
comp	-3960
ctac	-3961
cter	-3962
ctic	-3963
date	-3964
dent	-3965
ders	-3966
ding	-3967
duct	-3968
earn	-3969
ease	-3970
edan	-3971
edio	-3972
eine	-3973
eing	-3974
ejun	-3975
emos	-3976
ency	-3977
ener	-3978
enes	-3979
enou	-3980
enta	-3981
ente	-3982
entl	-3983
entr	-3984
entâ	-3985
eral	-3986
eran	-3987
erap	-3988
erat	-3989
ercl	-3990
ergi	-3991
ergy	-3992
erin	-3993
eris	-3994
erly	-3995
erou	-3996
erst	-3997
erud	-3998
erve	-3999
Fun	-4000
ayb	-4001
eak	-4002
eop	-4003
gut	-4004
lam	-4005
ldn	-4006
ldy	-4007
old	-4008
oop	-4009
oph	-4010
phy	-4011
pop	-4012
sop	-4013
uiv	-4014
utd	-4015
uty	-4016
▁CO	-4017
▁Ch	-4018
▁Cu	-4019
▁HO	-4020
▁Ho	-4021
▁WA	-4022
▁Wh	-4023
aile	-4024
amat	-4025
appi	-4026
aram	-4027
ativ	-4028
eser	-4029
esic	-4030
esig	-4031
esol	-4032
essâ	-4033
etal	-4034
etch	-4035
eten	-4036
etra	-4037
ffed	-4038
fuse	-4039
gard	-4040
gend	-4041
gent	-4042
ging	-4043
gret	-4044
hatG	-4045
heap	-4046
heck	-4047
herb	-4048
hist	-4049
holl	-4050
hony	-4051
host	-4052
hwat	-4053
iasm	-4054
ican	-4055
icas	-4056
icat	-4057
iceâ	-4058
icul	-4059
idit	-4060
idly	-4061
ient	-4062
igat	-4063
igen	-4064
igit	-4065
igno	-4066
ilen	-4067
ille	-4068
imal	-4069
imat	-4070
imse	-4071
imul	-4072
inac	-4073
inal	-4074
inar	-4075
inat	-4076
ince	-4077
inds	-4078
inea	-4079
iner	-4080
ines	-4081
ingf	-4082
ingl	-4083
ings	-4084
inin	-4085
inis	-4086
init	-4087
inks	-4088
inte	-4089
ions	-4090
irst	-4091
isap	-4092
isch	-4093
ison	-4094
isow	-4095
ista	-4096
ists	-4097
ital	-4098
itat	-4099
bod	-4100
dun	-4101
equ	-4102
jun	-4103
lla	-4104
lod	-4105
mpa	-4106
mph	-4107
odd	-4108
oll	-4109
ood	-4110
pol	-4111
qua	-4112
ung	-4113
unn	-4114
urp	-4115
ymp	-4116
▁GI	-4117
▁GO	-4118
▁GP	-4119
▁Ge	-4120
▁Gl	-4121
▁Lo	-4122
ails	-4123
anto	-4124
ared	-4125
atod	-4126
atur	-4127
bers	-4128
cise	-4129
dant	-4130
epid	-4131
guis	-4132
hant	-4133
itch	-4134
ites	-4135
itin	-4136
itse	-4137
itte	-4138
itus	-4139
ivel	-4140
iver	-4141
kers	-4142
king	-4143
lail	-4144
lard	-4145
lass	-4146
late	-4147
lean	-4148
lear	-4149
leat	-4150
ledg	-4151
lent	-4152
lers	-4153
lest	-4154
ligh	-4155
line	-4156
ling	-4157
lish	-4158
live	-4159
llap	-4160
ller	-4161
lone	-4162
loss	-4163
mble	-4164
mime	-4165
ming	-4166
mity	-4167
morr	-4168
mous	-4169
mpan	-4170
mpar	-4171
mpet	-4172
mpre	-4173
mpti	-4174
mpty	-4175
muse	-4176
nity	-4177
odam	-4178
ogiz	-4179
oing	-4180
oler	-4181
onal	-4182
onan	-4183
onar	-4184
once	-4185
onic	-4186
onin	-4187
only	-4188
onse	-4189
oped	-4190
oral	-4191
oran	-4192
orat	-4193
orce	-4194
orig	-4195
orit	-4196
orld	-4197
orre	-4198
ouls	-4199
agu	-4200
aur	-4201
ckn	-4202
dee	-4203
eur	-4204
hie	-4205
pie	-4206
pov	-4207
urr	-4208
urt	-4209
ush	-4210
yth	-4211
▁BA	-4212
Fake	-4213
aily	-4214
antr	-4215
arde	-4216
bout	-4217
cked	-4218
fill	-4219
hout	-4220
iate	-4221
icks	-4222
igni	-4223
indn	-4224
kind	-4225
lies	-4226
lody	-4227
oneâ	-4228
orth	-4229
ousn	-4230
outd	-4231
outh	-4232
outp	-4233
outs	-4234
outâ	-4235
owle	-4236
owly	-4237
pare	-4238
perf	-4239
peri	-4240
phyâ	-4241
ping	-4242
poin	-4243
port	-4244
pose	-4245
quac	-4246
quar	-4247
quir	-4248
quit	-4249
quiv	-4250
race	-4251
raft	-4252
rate	-4253
reac	-4254
reak	-4255
real	-4256
reat	-4257
rede	-4258
reep	-4259
rele	-4260
rese	-4261
ress	-4262
rill	-4263
rime	-4264
ring	-4265
rite	-4266
rity	-4267
roac	-4268
rock	-4269
rote	-4270
rout	-4271
rumb	-4272
rust	-4273
scop	-4274
sele	-4275
sets	-4276
sign	-4277
sist	-4278
sity	-4279
stan	-4280
sten	-4281
stes	-4282
stic	-4283
stil	-4284
stin	-4285
stit	-4286
stiv	-4287
stra	-4288
stre	-4289
tain	-4290
tell	-4291
tely	-4292
temp	-4293
tens	-4294
tent	-4295
tere	-4296
terl	-4297
tern	-4298
ties	-4299
Nah	-4300
OMI	-4301
OUL	-4302
OUR	-4303
ght	-4304
ncy	-4305
oks	-4306
olo	-4307
phi	-4308
▁MO	-4309
▁PO	-4310
Even	-4311
ahah	-4312
eath	-4313
ects	-4314
eigh	-4315
eone	-4316
ghts	-4317
nect	-4318
olat	-4319
ored	-4320
orph	-4321
phin	-4322
righ	-4323
rors	-4324
tion	-4325
tive	-4326
tter	-4327
ture	-4328
tuse	-4329
uced	-4330
uent	-4331
uing	-4332
uits	-4333
ukes	-4334
ular	-4335
ulat	-4336
ulce	-4337
ulch	-4338
ulou	-4339
ults	-4340
ulus	-4341
uman	-4342
umor	-4343
unat	-4344
unge	-4345
upid	-4346
ured	-4347
uron	-4348
urre	-4349
urth	-4350
urus	-4351
uses	-4352
ushâ	-4353
usil	-4354
usta	-4355
utin	-4356
vant	-4357
vely	-4358
vere	-4359
vers	-4360
vert	-4361
very	-4362
vity	-4363
want	-4364
wear	-4365
weet	-4366
wice	-4367
wing	-4368
xies	-4369
xist	-4370
yone	-4371
zing	-4372
̃vag	-4373
▁Act	-4374
▁Ban	-4375
▁Bet	-4376
▁Bor	-4377
▁Cal	-4378
▁Cat	-4379
▁Cle	-4380
▁Con	-4381
▁Cra	-4382
▁Eac	-4383
▁Ein	-4384
▁GAS	-4385
▁HER	-4386
▁Ham	-4387
▁Hat	-4388
▁Imp	-4389
▁MAT	-4390
▁Mid	-4391
▁Mir	-4392
▁POW	-4393
▁Pap	-4394
▁Pat	-4395
▁Pen	-4396
▁Ple	-4397
▁Pra	-4398
▁SHU	-4399
ASS	-4400
RAS	-4401
STE	-4402
TCH	-4403
TEL	-4404
ept	-4405
hoa	-4406
ief	-4407
iev	-4408
lip	-4409
meh	-4410
ome	-4411
tag	-4412
▁Di	-4413
▁FI	-4414
▁Fa	-4415
▁Fu	-4416
▁No	-4417
anag	-4418
ardâ	-4419
asks	-4420
clas	-4421
fine	-4422
fish	-4423
gile	-4424
impo	-4425
ipse	-4426
itif	-4427
keep	-4428
lood	-4429
mart	-4430
oids	-4431
osop	-4432
perh	-4433
ucce	-4434
▁Dar	-4435
▁Sat	-4436
▁Say	-4437
▁Squ	-4438
▁Ter	-4439
▁WAL	-4440
▁WOR	-4441
▁Whe	-4442
▁Who	-4443
▁Yes	-4444
▁abj	-4445
▁aby	-4446
▁ach	-4447
▁act	-4448
▁adv	-4449
▁agg	-4450
▁ahe	-4451
▁alg	-4452
▁als	-4453
▁ani	-4454
▁ann	-4455
▁ant	-4456
▁atm	-4457
▁aut	-4458
▁bas	-4459
▁bec	-4460
▁bef	-4461
▁beh	-4462
▁ben	-4463
▁bey	-4464
▁bir	-4465
▁bor	-4466
▁bru	-4467
▁bur	-4468
▁cal	-4469
▁cat	-4470
▁cha	-4471
▁coc	-4472
▁cod	-4473
▁coh	-4474
▁col	-4475
▁coo	-4476
▁cos	-4477
▁dar	-4478
▁dec	-4479
▁def	-4480
▁dem	-4481
▁dev	-4482
▁dir	-4483
▁div	-4484
▁dog	-4485
▁dol	-4486
▁dot	-4487
▁dow	-4488
▁dum	-4489
▁eac	-4490
▁ech	-4491
▁ecl	-4492
▁eit	-4493
▁emp	-4494
▁end	-4495
▁enn	-4496
▁eva	-4497
▁evo	-4498
▁far	-4499
LIG	-4500
LIN	-4501
MEN	-4502
cyc	-4503
ffe	-4504
YGEN	-4505
alue	-4506
aves	-4507
cary	-4508
cour	-4509
cycl	-4510
emin	-4511
grat	-4512
hank	-4513
hess	-4514
know	-4515
laci	-4516
lict	-4517
nows	-4518
oard	-4519
omit	-4520
ound	-4521
poss	-4522
rary	-4523
ratt	-4524
tact	-4525
uely	-4526
uess	-4527
▁aud	-4528
▁cru	-4529
▁fee	-4530
▁fla	-4531
▁fle	-4532
▁fou	-4533
▁fra	-4534
▁fro	-4535
▁gal	-4536
▁gam	-4537
▁gen	-4538
▁hal	-4539
▁ham	-4540
▁han	-4541
▁hap	-4542
▁har	-4543
▁hat	-4544
▁her	-4545
▁hes	-4546
▁hig	-4547
▁hom	-4548
▁hon	-4549
▁imm	-4550
▁ina	-4551
▁ind	-4552
▁ine	-4553
▁inf	-4554
▁int	-4555
▁inv	-4556
▁jac	-4557
▁jok	-4558
▁lan	-4559
▁lat	-4560
▁law	-4561
▁lea	-4562
▁lee	-4563
▁lef	-4564
▁lib	-4565
▁lic	-4566
▁lif	-4567
▁lig	-4568
▁lik	-4569
▁lin	-4570
▁lit	-4571
▁loc	-4572
▁log	-4573
▁lon	-4574
▁loo	-4575
▁los	-4576
▁mad	-4577
▁mag	-4578
▁mak	-4579
▁may	-4580
▁med	-4581
▁mel	-4582
▁mem	-4583
▁men	-4584
▁mew	-4585
▁mig	-4586
▁mil	-4587
▁min	-4588
▁mir	-4589
▁mob	-4590
▁mod	-4591
▁mon	-4592
▁mou	-4593
▁nav	-4594
▁nec	-4595
▁neg	-4596
▁nem	-4597
▁ner	-4598
▁nev	-4599
LTH	-4600
OLI	-4601
WER	-4602
ogy	-4603
rup	-4604
udd	-4605
xyg	-4606
▁LI	-4607
▁La	-4608
brum	-4609
bute	-4610
eles	-4611
lted	-4612
oget	-4613
oths	-4614
rgen	-4615
rums	-4616
smic	-4617
smos	-4618
tleâ	-4619
ules	-4620
▁Nob	-4621
▁Tru	-4622
▁fav	-4623
▁gna	-4624
▁hel	-4625
▁new	-4626
▁nig	-4627
▁nob	-4628
▁num	-4629
▁oth	-4630
▁pan	-4631
▁pas	-4632
▁pat	-4633
▁pen	-4634
▁pie	-4635
▁pin	-4636
▁ple	-4637
▁pon	-4638
▁pop	-4639
▁pow	-4640
▁pra	-4641
▁pur	-4642
▁ran	-4643
▁rea	-4644
▁rec	-4645
▁ree	-4646
▁rej	-4647
▁rem	-4648
▁ren	-4649
▁rev	-4650
▁rew	-4651
▁riv	-4652
▁sal	-4653
▁sam	-4654
▁sar	-4655
▁sas	-4656
▁scr	-4657
▁sec	-4658
▁sel	-4659
▁sen	-4660
▁sep	-4661
▁sew	-4662
▁she	-4663
▁sid	-4664
▁sie	-4665
▁sig	-4666
▁sin	-4667
▁sle	-4668
▁smi	-4669
▁som	-4670
▁sop	-4671
▁sou	-4672
▁spa	-4673
▁squ	-4674
▁sta	-4675
▁sto	-4676
▁str	-4677
▁sty	-4678
▁sup	-4679
▁sur	-4680
▁syc	-4681
▁tak	-4682
▁tal	-4683
▁tan	-4684
▁ten	-4685
▁ter	-4686
▁tha	-4687
▁thi	-4688
▁tho	-4689
▁thr	-4690
▁thu	-4691
▁tim	-4692
▁toa	-4693
▁tod	-4694
▁tom	-4695
▁ton	-4696
▁tra	-4697
▁try	-4698
▁tur	-4699
BAR	-4700
ICK	-4701
ING	-4702
ITI	-4703
STI	-4704
eho	-4705
iFi	-4706
tia	-4707
▁Li	-4708
TING	-4709
ault	-4710
dmit	-4711
ffic	-4712
gree	-4713
mark	-4714
mmit	-4715
ragg	-4716
rien	-4717
ropy	-4718
rugg	-4719
titu	-4720
uild	-4721
▁Bea	-4722
▁MAG	-4723
▁MOR	-4724
▁Rid	-4725
▁aff	-4726
▁imp	-4727
▁tut	-4728
▁unb	-4729
▁und	-4730
▁une	-4731
▁unf	-4732
▁uni	-4733
▁unl	-4734
▁unw	-4735
▁vap	-4736
▁vin	-4737
▁wal	-4738
▁wan	-4739
▁wat	-4740
▁wee	-4741
▁whe	-4742
▁whi	-4743
▁wil	-4744
▁wis	-4745
▁wou	-4746
▁wre	-4747
▁yam	-4748
ACKBO	-4749
ARRAS	-4750
ASOLI	-4751
DDAMN	-4752
EREDU	-4753
LIGEN	-4754
Lying	-4755
MBARR	-4756
OOTHP	-4757
OULDN	-4758
PASTE	-4759
SMENT	-4760
TELLI	-4761
aches	-4762
acrum	-4763
acter	-4764
acult	-4765
adows	-4766
aggot	-4767
ahaha	-4768
ainte	-4769
alent	-4770
ament	-4771
amily	-4772
aming	-4773
amned	-4774
andar	-4775
anded	-4776
anent	-4777
angut	-4778
aning	-4779
anish	-4780
apers	-4781
appen	-4782
appie	-4783
arame	-4784
arcas	-4785
arcic	-4786
arder	-4787
arity	-4788
arned	-4789
arren	-4790
artic	-4791
astes	-4792
atase	-4793
athet	-4794
atous	-4795
atter	-4796
ature	-4797
aving	-4798
axies	-4799
ikT	-4800
neg	-4801
CATE	-4802
CKBO	-4803
KING	-4804
OOTH	-4805
VOMI	-4806
eird	-4807
trig	-4808
ysis	-4809
▁Beg	-4810
▁buz	-4811
CATED	-4812
CHSTI	-4813
LISTE	-4814
XYGEN	-4815
ackal	-4816
adesâ	-4817
anets	-4818
ankru	-4819
arism	-4820
aying	-4821
bject	-4822
cards	-4823
cated	-4824
chiev	-4825
ching	-4826
chive	-4827
choes	-4828
cible	-4829
cknow	-4830
conse	-4831
crity	-4832
ction	-4833
ctive	-4834
ctual	-4835
culat	-4836
cutor	-4837
dates	-4838
derst	-4839
dless	-4840
eally	-4841
ectac	-4842
edant	-4843
ejune	-4844
elect	-4845
emini	-4846
encil	-4847
ended	-4848
eness	-4849
ental	-4850
entat	-4851
ented	-4852
enten	-4853
enter	-4854
entro	-4855
eople	-4856
erate	-4857
erbos	-4858
erebr	-4859
erest	-4860
eries	-4861
erish	-4862
erous	-4863
ersel	-4864
erses	-4865
erves	-4866
eryth	-4867
esper	-4868
eticâ	-4869
etrit	-4870
feine	-4871
ffron	-4872
flect	-4873
getic	-4874
gible	-4875
glish	-4876
gorit	-4877
hadow	-4878
hatGP	-4879
herbo	-4880
hless	-4881
honic	-4882
hosts	-4883
iance	-4884
icant	-4885
icass	-4886
icted	-4887
ideas	-4888
idity	-4889
ience	-4890
igher	-4891
igits	-4892
ignif	-4893
ignor	-4894
ikTok	-4895
ildly	-4896
ilent	-4897
illan	-4898
illum	-4899
ALK	-4900
hms	-4901
SMEN	-4902
liss	-4903
▁caf	-4904
ILTHY	-4905
bloss	-4906
casts	-4907
effic	-4908
esome	-4909
ilure	-4910
imate	-4911
imity	-4912
imous	-4913
inary	-4914
inate	-4915
inced	-4916
ineag	-4917
ining	-4918
inion	-4919
inish	-4920
inite	-4921
▁	-4922
e	-4923
o	-4924
t	-4925
a	-4926
s	-4927
i	-4928
n	-4929
r	-4930
u	-4931
l	-4932
h	-4933
y	-4934
c	-4935
d	-4936
m	-4937
p	-4938
g	-4939
f	-4940
.	-4941
w	-4942
v	-4943
b	-4944
,	-4945
Y	-4946
k	-4947
I	-4948
'	-4949
T	-4950
€	-4951
â	-4952
?	-4953
A	-4954
M	-4955
O	-4956
E	-4957
j	-4958
x	-4959
!	-4960
S	-4961
H	-4962
G	-4963
”	-4964
N	-4965
C	-4966
W	-4967
D	-4968
F	-4969
U	-4970
q	-4971
R	-4972
P	-4973
L	-4974
-	-4975
B	-4976
z	-4977
*	-4978
V	-4979
K	-4980
;	-4981
¦	-4982
0	-4983
:	-4984
(	-4985
)	-4986
5	-4987
J	-4988
X	-4989
1	-4990
>	-4991
Q	-4992
ð	-4993
Ÿ	-4994
̃	-4995
’	-4996
